19
e2
d7
fb
f8
f3
f4
fc
17
f7
25
25
05
e5
e2
19
10
f1
ef
03
0c
e7
1a
02
e5
04
1a
0d
0d
f9
fe
12
f2
e4
e5
18
06
01
f8
08
03
dc
fe
1c
f8
f4
dd
1b
e2
09
f9
ef
eb
0b
18
ef
d0
10
eb
1f
e5
e4
23
12
f7
13
de
19
f5
07
06
0c
f1
0d
0f
15
15
11
dd
f8
02
00
f4
fc
ec
fc
22
fc
ed
26
05
fd
e5
f9
0b
19
05
15
03
06
e6
04
11
fe
05
01
1c
15
d8
0b
f7
ed
02
e8
00
ec
f4
08
11
20
02
0c
0d
12
e8
ee
1a
fd
fa
12
12
0e
e4
0f
17
11
02
f7
f0
ff
f7
ea
0f
eb
fd
fe
19
13
19
f8
08
ef
15
fe
16
11
0b
0a
e6
ec
fd
09
e4
fd
12
06
f2
28
1b
ef
05
0c
09
d2
d6
2b
31
08
04
fd
f0
e6
04
02
f9
12
f7
03
12
e9
ed
f6
18
16
e1
f8
f0
03
02
ff
01
ed
24
e2
e6
06
0a
df
fe
ee
e4
11
f1
fe
19
f2
0b
fd
07
12
ff
e4
1e
24
ea
18
16
de
ef
00
f6
ea
17
24
f7
03
f1
f6
fa
e1
14
04
f7
08
18
e8
0a
0f
23
f8
0d
06
01
fe
0b
d4
16
fb
df
0e
fe
f4
dd
f2
ec
10
03
ed
e8
14
f8
28
ec
f1
fa
ee
0b
e4
05
ed
1d
f6
f4
f8
03
06
f6
d9
ec
ec
2a
e1
15
05
0d
e6
17
18
09
07
f8
0d
fb
ee
e3
f4
e5
e2
27
15
ec
0b
f1
e8
1c
fe
09
f8
f2
0b
ff
f9
10
0d
fc
01
08
f4
fc
e2
f0
2a
0b
10
0b
dd
fd
eb
f8
f7
02
1f
f6
09
e3
1c
1b
18
dd
19
03
08
25
f9
e4
e3
f9
f2
15
21
f3
f6
20
0e
00
0c
10
05
ef
04
eb
09
dc
d8
23
f3
05
0e
ef
e9
fb
e0
f3
f7
03
1b
15
fe
f2
db
15
e4
09
15
fd
0b
12
05
01
dd
f0
1a
01
f5
1c
ee
d5
21
03
e5
36
f1
f5
26
15
f5
02
e2
11
f5
21
07
e9
22
23
0d
ee
fe
1d
d3
ef
02
1e
05
14
03
f2
e3
f8
24
ef
fd
ec
08
08
fa
d0
f8
09
da
04
21
fe
e3
08
18
02
01
03
22
17
0d
f4
11
e3
26
fa
dd
fc
00
f4
0e
f0
0f
00
fe
27
01
dd
1a
f4
1b
f5
e9
fd
11
02
ef
f1
21
19
0d
e2
ec
ea
1c
08
fe
eb
04
0c
01
f5
03
23
f7
02
f2
02
ff
02
0e
e9
f7
15
d3
fd
e6
20
e4
0e
1b
05
e2
12
fb
28
f2
18
0d
e2
08
0d
ef
e8
00
2a
e2
24
f8
1e
27
d8
fc
ef
01
19
12
09
f7
fd
0b
04
fe
ff
00
f4
ee
fb
f4
e8
fa
ea
ee
05
1e
04
fa
00
02
03
14
13
f6
f4
02
e1
06
21
f5
fc
15
28
06
1a
1b
de
e2
fd
07
f6
fd
fc
23
e8
e2
24
07
02
e7
1a
d7
12
db
10
f7
e6
01
f8
0b
fe
fc
ef
17
e1
19
f8
f9
03
d5
0c
ea
20
1b
f9
00
eb
0b
30
e8
0b
f5
ef
04
14
e7
f3
f5
07
e2
ed
ef
e4
15
25
e4
fa
f2
e2
e5
f2
1a
01
d9
0c
f0
e8
f4
14
29
ff
0d
06
1f
fc
20
08
04
ee
32
10
05
11
ec
07
0a
17
df
da
1d
fb
e5
ef
e3
18
f8
22
ff
01
0a
09
07
de
01
fc
1d
f8
11
04
01
e5
f4
13
fc
2f
f7
e5
16
ed
09
04
de
04
02
23
e5
f5
04
10
f8
e8
fc
03
0d
db
f9
16
1f
2c
e2
03
05
dc
22
e9
05
15
e3
cb
07
17
ff
e2
f1
19
ee
35
0d
fa
14
e1
2f
e3
1c
e8
dd
08
10
1b
06
07
f7
0a
01
04
ff
0b
f8
fa
e2
1c
f0
f4
fb
04
ec
e5
f7
15
fb
0c
07
0b
f4
04
01
f1
ef
e8
fb
22
e8
ee
e9
07
09
33
f5
12
19
25
f5
fa
ff
07
fe
f4
f3
f1
e9
13
ee
0b
f8
02
fa
01
16
df
ed
f4
fa
0a
e7
fb
ef
21
19
16
ed
f4
f9
e9
27
ee
08
e1
ea
f2
f1
07
f2
f2
15
18
17
ee
ee
0e
e9
14
08
19
0c
09
02
f2
17
19
0c
fa
13
10
04
2e
e3
e9
0a
ff
f6
2a
02
12
d7
04
21
1c
09
e8
15
15
1f
ec
08
03
fa
fa
f8
0d
e1
f1
f8
10
0e
de
04
0f
0b
18
0b
ee
1e
f4
fb
04
ef
10
08
07
ff
e9
0f
e6
db
dc
05
04
0c
15
f3
ef
ff
0c
19
e6
f6
13
03
06
11
d0
f4
21
07
e0
e6
f4
f9
01
fb
09
0d
0a
f6
08
ec
01
ed
01
21
19
05
28
09
11
fa
cc
24
05
f3
0c
11
f8
01
fa
0a
e0
17
1d
10
eb
06
01
01
00
fd
09
f6
02
e8
06
08
04
f5
f3
fa
e1
0b
f4
ee
fc
fa
13
e3
f7
23
2c
fb
0b
12
0a
e9
ee
f3
f4
ea
f6
03
ee
df
1e
1b
0f
0f
e7
ee
ed
21
f6
09
ed
00
0b
1e
e3
03
29
eb
ed
03
05
0c
e4
f6
01
01
fa
f3
f4
0d
17
ed
06
2f
dd
fe
1f
0f
10
22
f2
2b
e7
0d
03
e2
f2
fa
ea
f2
eb
0b
fb
0d
ee
f9
06
f3
0f
fc
e9
fa
fe
06
13
e2
12
10
1d
f6
f8
02
0b
1f
18
e0
05
01
0e
f3
dd
09
09
e8
f9
15
f6
ea
13
e3
22
fc
0e
16
09
14
07
22
f1
da
06
ed
1b
11
ef
e0
02
f9
0c
08
e3
04
03
fd
f5
f1
ec
e8
f3
02
19
f0
1c
14
1b
f3
03
01
0d
17
15
ee
0f
ef
ee
fd
ef
03
0e
f8
f9
07
f2
fe
07
02
08
d6
06
f7
f8
09
e9
19
04
f3
0e
f3
04
f2
20
f1
24
f8
cd
fc
dd
ec
29
0b
f7
1d
f7
e6
08
24
09
00
1e
fc
f9
e3
11
03
14
1d
dc
ee
e6
0c
e7
dd
0d
03
fd
11
fe
25
e6
fb
0d
0a
f3
06
0e
c2
11
0b
06
13
12
ca
0c
df
de
f5
04
20
11
10
da
04
0f
05
eb
f1
f4
0a
ef
0f
f1
f5
f7
e9
eb
ff
12
1a
00
ef
11
0a
06
ff
ef
24
24
f0
12
06
03
e6
1f
fa
03
07
1c
df
f3
e0
08
1b
07
fa
fd
ff
23
00
cb
fb
1a
00
e0
fc
eb
c9
e3
16
19
f6
0f
cb
0e
f8
0d
0d
01
f3
08
15
01
d0
f9
08
15
11
f6
d8
01
1a
24
18
2c
17
e6
fd
00
d6
28
15
f6
06
14
20
fd
10
f5
10
19
0b
e9
12
df
01
f9
06
ec
04
e4
f0
06
df
23
ff
f6
18
0b
f5
fe
15
ee
1a
00
0b
12
2a
e3
04
dc
fa
04
03
fa
de
22
fd
0c
ea
03
fd
fd
fa
fd
10
fd
e7
e0
04
e9
00
24
1b
fe
15
2b
03
ea
ea
10
de
09
18
13
f1
25
f0
00
ef
f4
29
0c
f9
e3
0b
19
02
e4
fc
14
13
17
18
d8
ff
f3
0b
ec
ed
0d
13
f9
22
e7
1d
10
f6
f3
18
01
ea
03
ef
e5
1a
02
0d
dc
01
15
04
20
f8
fa
19
16
e4
e1
08
eb
da
02
f2
01
e1
f0
14
0d
e3
01
26
ef
f0
f4
16
04
1d
f6
df
0f
11
17
11
d1
0c
08
04
07
29
1c
ec
0d
0c
04
28
e4
db
11
e7
f4
ee
f8
f5
2f
21
f5
0f
fb
06
ef
0b
ec
02
14
ce
e5
21
1c
ff
0c
0e
05
19
10
17
00
cd
d1
e8
0f
34
04
22
d2
06
f5
de
2a
02
1c
e0
db
1c
29
fa
f8
05
e9
16
04
f8
e0
ec
07
09
e5
24
f7
f8
cb
ea
eb
fd
dc
f2
fa
02
f2
21
12
1a
11
12
04
0b
0f
f0
f2
fa
d8
05
2c
d7
eb
f7
02
1f
e1
0b
f6
ec
f6
ea
ef
f8
f5
de
fe
fc
f4
fa
01
fe
f9
12
e2
13
f3
f0
0c
05
db
0e
21
1e
eb
f4
19
16
ff
2f
db
18
03
0c
e2
09
1c
03
1c
03
14
e4
f8
f8
e5
02
08
d1
f3
07
fe
fe
e7
ea
13
d9
07
ff
24
fe
0b
28
05
d7
fc
f7
25
f7
1b
11
e2
0d
11
eb
d5
fe
06
d7
27
f9
1a
27
de
e3
02
1b
fc
13
ef
fe
03
09
e4
0b
ff
f0
f7
08
e7
05
ea
05
1b
ec
0d
11
f9
f4
0e
06
0a
0d
f3
17
10
16
21
fa
e8
07
16
15
18
f8
21
f3
21
ff
19
f7
ff
0a
f6
1f
ee
e5
1f
01
eb
d8
0d
de
2a
ea
16
fa
d5
0b
11
c8
fd
ef
0e
f3
25
0f
f6
f9
e5
f2
27
08
0b
23
2d
15
0f
05
e7
01
f4
e1
f1
ea
fc
0b
f8
f3
f2
fd
39
07
de
15
f8
f2
e4
fe
f1
09
38
0b
d2
08
0a
0e
e1
09
ef
fb
fa
10
f7
03
17
e2
12
f2
07
fc
f9
f5
1b
f8
f7
14
e3
d8
d6
10
f9
02
e8
f8
ef
fd
06
0f
1f
ef
f7
fe
fe
de
db
15
00
0f
eb
ce
0a
22
13
08
06
0e
f2
16
0e
17
e8
f4
09
fc
22
24
ee
f9
e7
0d
ee
e3
06
ff
e4
f6
18
1b
d4
29
ef
18
da
f4
29
f4
1e
e8
e3
01
fb
02
f0
ed
fb
f8
03
f0
22
f5
02
f2
29
0e
f3
f7
f1
0f
ff
dc
fd
ee
14
02
10
0a
fd
01
ce
fd
15
ea
03
f2
ee
0d
e5
11
f0
ea
ff
fe
d3
0a
23
08
1c
02
06
ff
fe
11
f2
16
e2
ff
e5
2a
07
d6
e6
19
fc
2b
fe
0f
f2
f3
0f
ec
f0
14
dc
fd
04
fd
f5
e6
fe
18
ef
13
09
0a
e5
1e
03
29
e3
f7
fa
d3
13
e5
f4
19
ec
f7
fb
0b
dd
02
fd
e4
23
fc
1e
0d
19
17
19
f4
fc
e6
e4
00
ef
15
fe
dc
f9
ee
0b
1d
fd
fc
25
e4
fd
f8
03
fb
fe
25
08
df
0c
0a
e0
00
07
23
e3
ff
13
09
0b
0c
21
e1
14
ff
04
ef
0b
e6
11
f3
03
12
ed
ef
1b
09
eb
0c
ee
27
0e
0e
f3
0e
1f
02
f6
eb
04
05
de
07
ee
02
fd
d5
ef
1b
fe
09
