20
dc
cd
03
01
ee
f3
fc
19
ea
3b
2a
08
f3
d9
21
0a
fa
e4
fc
0b
db
20
0c
e2
fa
1a
16
1d
e6
f1
14
ed
e0
d5
2d
1a
08
ed
14
08
d0
02
2c
eb
f3
ce
2f
d3
f6
07
ed
d9
11
27
fe
b5
23
d9
29
d5
d3
31
1b
f4
25
cb
2b
f0
0d
fe
0e
e7
07
27
2a
0c
1c
ca
f5
f7
f5
f6
f8
e3
01
2b
0a
d9
34
fb
03
d3
e9
18
18
07
2c
fd
14
d0
02
0b
fb
fb
fb
36
2b
c8
07
e3
e7
f7
d8
ff
ef
e8
0e
16
32
f9
18
08
19
d3
e9
2a
f4
ef
0d
16
fe
ee
19
2a
0a
07
ff
e1
f1
06
e6
29
d7
07
04
1e
0f
27
f9
ed
f3
22
ef
2b
0c
17
25
d3
dc
eb
06
f9
ef
18
00
01
2e
24
eb
f7
0c
11
cc
c0
2d
3e
0d
0c
fb
ec
db
07
06
e1
1e
ec
11
26
df
e1
f0
27
27
e1
fd
d2
09
fa
00
01
e5
3f
e7
d2
12
ff
cc
00
e3
d4
10
e6
ff
1e
e9
1d
fc
08
13
f6
d0
27
34
e4
2e
1f
d0
dd
06
08
dd
17
33
01
ff
f0
07
00
d0
16
16
dc
fb
28
f2
05
00
36
df
1f
fb
0a
fe
08
c5
12
ec
d2
17
0e
fe
c5
e0
ea
19
fc
e1
e0
2b
0d
3a
d8
fb
f0
e2
17
f6
14
ea
29
ea
f7
00
05
07
fa
e0
db
fc
42
cb
08
11
28
dd
18
26
05
f8
ed
05
04
de
eb
f2
df
db
30
16
e5
07
fb
e3
24
07
11
f1
e6
fd
ff
fd
fb
1b
f4
f8
04
df
e9
d0
e5
3c
0e
24
fe
c9
f6
e3
05
f7
00
30
e7
12
d4
26
2c
19
ca
30
0c
01
33
fe
d8
e1
ec
dd
27
2c
ea
e3
2f
1a
05
17
fb
0d
ff
11
e7
13
c6
c8
2c
f5
fa
18
e2
ea
04
d9
f8
01
f5
24
1f
f0
ec
e0
20
db
06
26
f2
ff
21
fd
19
ca
f5
22
ff
f0
31
f1
bc
24
11
de
49
e2
f7
3c
03
e1
ef
e2
1b
e9
22
06
f2
2e
33
10
e3
05
2b
c3
db
08
2e
03
21
0c
f4
d5
fa
32
dd
07
e3
0e
1b
f7
bc
e7
0e
c8
04
31
0d
e5
f6
17
0f
01
fd
32
1e
14
f1
19
db
33
01
d2
0c
07
e8
0f
ec
04
0b
f9
31
ff
d0
24
e9
2b
04
da
e6
1d
14
e7
f6
32
21
0e
e0
f9
e0
16
13
0d
de
f2
1c
06
ed
fa
31
ea
0d
ee
0b
f6
f6
02
e3
0c
28
be
e8
ee
3b
e1
11
2a
02
d1
16
f6
3b
de
2d
1b
d0
06
1b
ea
d4
f1
3d
d0
38
e6
2a
2e
cb
ec
e6
08
26
11
06
06
fe
08
12
01
05
06
db
eb
fd
e3
da
e6
de
e5
0a
2e
12
f0
fd
05
ff
23
10
e0
fa
05
e2
0b
2b
e8
eb
21
36
01
1a
27
dc
d7
01
1a
fb
fd
06
35
d5
dd
2e
0b
f9
d4
2c
c4
1f
d1
19
e7
df
01
f8
1d
0c
ee
de
1f
ec
21
03
0d
09
bf
02
e4
35
1a
08
08
d3
0d
40
dd
10
de
05
f4
19
d9
ff
ea
04
da
e9
eb
d5
24
3c
e4
f1
e7
d6
d6
dc
22
f6
ce
07
f1
da
e3
28
3b
f3
18
08
33
eb
31
02
0e
dc
4f
26
09
1a
e0
f7
1a
30
d6
cc
1f
e8
d9
e8
e3
1a
f2
22
0a
f4
f5
1b
1e
cf
01
02
2e
ea
1e
fb
06
cb
04
2c
0b
41
ef
ce
20
ef
0c
f1
ca
00
fc
37
df
ea
12
26
f5
db
ff
f1
10
d9
04
1c
26
42
ce
18
05
d8
27
e5
0e
1c
d4
bc
0d
28
0b
ce
e1
1c
f3
3b
08
f7
20
f0
3f
d2
2c
dc
d2
0e
1c
25
07
14
e8
12
0a
0d
02
02
fc
f8
ef
33
e1
e1
02
19
ec
ed
03
2c
fe
09
04
0f
f1
06
07
de
e1
ee
fe
2c
db
fb
da
0c
06
3e
e3
14
0b
3b
e3
e4
13
19
07
dd
e1
f3
d5
26
f9
04
03
15
ef
ef
17
d2
e6
fa
09
0e
e0
08
df
33
1d
16
ec
f6
06
e7
36
df
0b
d0
e3
e9
dd
ed
ee
ed
1b
1e
30
f1
dd
0b
e9
16
06
20
17
00
06
f0
1b
28
09
ed
28
1c
f4
3c
cf
e5
0d
0b
eb
34
09
1a
cc
0e
29
2e
0e
ee
24
1e
2e
ea
fa
07
ed
eb
ec
16
d0
fa
f5
21
0f
d4
0e
10
1b
16
17
d2
23
f1
06
08
e8
2a
12
f7
00
df
0a
e5
cf
cb
01
fd
11
1a
e7
e8
09
07
18
d3
e0
1b
08
11
06
bd
fa
29
0e
cb
cd
eb
f2
07
fc
0f
1f
1f
e5
fa
f6
fa
e4
0f
2e
1d
04
3e
fb
25
fd
c8
3a
ff
f5
0b
09
f2
08
06
07
d5
22
25
0f
dd
03
07
0d
07
00
08
f8
01
dd
0b
ff
09
ef
e8
00
db
0d
04
e6
f1
00
18
e0
e5
36
41
02
fe
17
0a
dc
ea
fc
e8
e4
ed
0c
df
c9
2e
1c
ff
18
ef
ff
d7
37
e7
12
de
01
1a
2c
d9
0e
37
db
d9
02
02
14
de
fc
f4
04
f1
e4
e4
0e
1d
dd
19
3e
d0
f8
1e
1d
07
31
e7
36
dc
0b
0b
db
fa
ef
e6
f2
f9
06
ee
11
f3
f1
02
f1
15
fb
e7
f2
fd
05
11
da
11
0f
24
ee
fb
07
08
28
1f
db
07
06
22
e7
d2
ff
1c
dc
05
23
f1
e8
1a
ce
2f
f7
1c
20
18
1f
0f
2e
e0
c6
fc
e9
28
0e
e9
da
07
f9
05
15
d3
08
fd
05
fe
f6
e9
ed
f8
0c
11
ed
17
1c
2d
eb
fc
02
04
13
18
ee
1c
e4
e0
ff
e8
02
0e
f1
02
0e
e7
ff
09
fc
13
da
04
e9
00
12
e4
12
0e
e5
25
dd
04
f2
2b
e1
3b
fa
b1
0c
e2
e6
3e
0b
fd
3c
e3
cd
00
2d
0c
10
28
fe
f3
d9
08
f8
17
2d
c9
e3
d7
0a
d6
cc
18
05
f1
22
05
38
d4
09
05
17
dd
10
29
bf
18
1e
ec
22
fe
c1
0a
dc
cb
e7
17
35
0a
22
c7
f7
0a
fd
e9
f8
ea
16
f2
15
e2
02
f6
e5
d8
f7
22
19
f9
e8
16
03
17
01
f7
31
32
f5
08
f9
10
d5
24
03
10
0a
27
e8
f8
c9
0f
2a
05
02
ef
04
39
fe
b7
f3
2b
fe
ce
04
fa
bc
db
23
16
f5
0c
c0
17
ef
1a
10
0e
ed
11
2b
fc
c2
f0
0e
1f
1b
f3
c8
f7
26
26
20
3e
20
d5
ff
eb
c2
33
1d
e6
f4
2e
2e
fe
22
e3
11
24
14
db
13
cc
ef
04
03
e8
09
db
ed
06
d2
27
0a
ef
31
15
ec
f4
20
fe
16
02
17
17
3b
d3
0e
d6
f8
02
04
e8
d9
33
0d
0f
e4
06
ec
00
fe
06
07
f9
cf
d5
00
f1
f0
28
16
0c
20
3d
09
e1
e0
20
cc
00
1d
23
ef
35
f6
08
d8
f0
3d
01
00
db
0e
2e
07
cb
e9
1d
29
13
25
b6
fa
e4
14
de
e8
26
1f
ea
38
d7
1a
1b
f0
e0
15
fd
e6
0f
e5
e9
1d
fe
03
ce
ed
24
06
2c
f2
e5
29
2c
d9
d2
07
dc
ce
00
f6
05
e0
ef
17
04
d4
12
37
e3
ed
f7
29
f8
2d
f1
e1
f7
24
29
19
c8
1d
16
05
f3
37
24
e0
11
12
14
36
cd
d0
0e
d4
e8
df
e9
eb
39
2f
f6
16
04
04
fb
14
e4
01
1d
bd
da
34
2f
f2
f9
0f
0d
27
21
26
0f
bb
c1
d2
14
3e
0a
1d
c1
09
f5
c9
40
fe
1b
ee
c7
18
39
eb
f7
fd
e6
1e
18
e9
d7
eb
07
11
e3
2c
f9
f2
bb
d8
dc
fd
d7
e6
ff
0f
ed
20
1c
1f
12
16
f5
16
0b
e3
fc
f8
cb
0c
41
ca
e2
ed
01
32
e2
17
e9
ea
f1
d1
dd
03
fd
cf
12
0a
ee
f0
02
06
ee
1f
d5
19
ea
e9
17
ff
c3
15
37
24
e5
e3
17
22
f8
3b
bf
1b
15
15
ce
18
2c
06
2f
0f
23
dd
fe
f4
c8
14
f5
c5
f5
08
0a
ee
e6
f7
20
c5
f8
09
3e
f8
0c
34
ff
c4
01
f9
39
e2
2f
20
cf
0f
1d
e9
be
ee
1a
c3
3e
e7
26
2e
d2
dd
04
2b
f1
11
e2
01
f7
fd
d4
12
06
e9
f2
19
f0
fd
e3
0c
14
ef
0d
13
f6
fc
1a
fd
12
07
ee
24
12
14
31
e9
d6
15
24
13
11
f6
29
e8
2c
09
25
03
fb
19
f9
2f
e8
e3
28
04
d8
d7
10
cf
41
da
1e
00
cb
10
24
bf
fc
e6
04
ed
2d
10
ee
f9
f4
e3
31
17
14
2e
39
24
04
fb
e2
f6
ea
cc
ff
dc
04
02
ff
e7
f4
09
48
f8
cc
29
02
f8
cd
eb
e9
06
45
0b
d1
17
1f
1c
d0
15
db
f7
06
22
f9
fd
29
ce
25
eb
05
02
00
00
2c
fa
e7
25
e6
d0
c7
16
fa
07
ea
f1
f3
f4
12
12
2b
e4
fc
11
04
ce
df
18
07
1a
ea
bb
fe
33
17
11
07
1a
e8
27
0a
19
e1
f7
03
f5
39
35
dd
fc
d8
14
e1
d5
0b
fa
d6
fd
21
2b
c1
38
e3
21
c8
e6
39
f7
34
da
cd
13
fa
06
de
df
01
e5
15
fe
2c
02
0d
e8
28
15
e2
ec
fe
27
fa
c8
08
df
2b
f6
0f
0d
02
06
b9
fe
2b
d5
f4
e2
f5
1a
e8
1d
da
e5
10
f1
bc
16
35
09
2e
0c
06
f2
fc
10
dd
27
d6
03
ee
28
06
c4
e2
2a
f4
3c
fa
0f
ea
ee
07
e5
01
26
ca
fd
f4
f7
e6
d6
03
19
e6
1e
0f
1c
d1
2b
fc
33
d0
f7
0e
ce
25
d9
e6
20
f5
f1
f9
10
d5
05
fd
d5
2f
f5
32
10
28
17
25
ff
f8
d6
d9
fd
fa
15
01
ce
f0
f7
0b
27
f8
0d
32
d6
ed
fb
0b
f4
fe
34
0c
d1
0e
15
e9
fe
0a
30
ce
f6
20
0a
0c
fb
32
cd
21
f8
08
e2
0c
d6
25
e2
fa
25
e5
e0
21
02
eb
07
eb
36
22
0f
fa
12
34
0f
ff
e3
0f
fd
cf
fd
ea
01
09
be
ec
2c
f0
0f
