ff
f0
00
11
09
06
fe
0b
da
fe
0c
0d
fe
f6
02
0f
f3
ff
0f
e8
17
08
e2
ec
01
f6
ff
09
f0
fa
e7
f7
03
ff
00
11
12
0b
06
fc
00
15
fb
e6
ff
fe
2c
05
05
04
12
0d
f8
06
0e
e8
ff
16
f1
17
13
ff
ef
11
1b
06
ee
06
fe
00
e0
14
09
0a
fb
fe
e2
04
12
12
f9
08
1b
fc
2b
09
0b
0f
17
fa
fb
17
f1
fd
fe
03
03
f4
10
ed
db
0d
f7
0c
03
f0
0a
e5
e2
0f
06
e3
04
04
e9
0d
fe
1f
1b
13
08
08
02
f6
ff
0d
08
ee
16
ff
f7
fd
13
1c
10
f2
0d
f2
ed
06
f5
12
fb
08
eb
ec
f3
e5
f9
e5
1e
23
e7
0c
20
0f
e8
34
01
e7
0a
08
f7
fc
f4
f2
fa
02
d6
fd
0d
1b
f8
db
d4
ef
01
04
11
dc
12
21
f7
32
db
e5
09
22
ee
ee
ef
f1
e3
e3
f2
05
fa
07
fe
f8
e5
0e
0e
0d
eb
f8
0f
03
f9
ff
f2
ee
13
f8
06
f6
0d
0b
fe
05
ff
1e
f4
f1
13
05
ff
f6
0e
04
f3
ed
f6
03
05
fb
f3
f4
05
1d
0a
0c
fc
eb
fd
00
10
fa
06
ef
0d
18
0b
12
f0
0e
f3
08
03
08
01
f1
fe
01
f3
fa
fe
f5
0d
e8
03
f2
1f
08
09
19
fa
0e
f7
e5
0b
ed
e9
05
0d
dd
06
15
f6
0e
10
10
f2
11
0f
f5
2f
09
14
e8
0f
1a
1f
11
fa
ee
e4
09
f3
f6
f4
d1
26
17
f9
e0
18
14
13
15
f3
09
ee
ee
e9
fe
f4
01
25
ee
08
de
00
0e
1a
ee
ef
0c
ef
09
0d
00
0f
10
06
fc
10
e6
ed
06
02
fd
0c
00
f8
13
03
01
11
01
fe
e0
fc
ff
01
ee
d7
00
06
12
18
f3
f3
ea
ed
18
16
de
f4
09
f7
ed
08
f6
1a
03
fa
f5
0d
1b
0f
0a
22
f3
e8
0c
fb
0e
04
fc
f4
f2
e3
f0
d3
f3
1c
24
ee
0a
1a
0c
f6
10
14
eb
09
0f
09
ff
0c
ec
df
05
ea
ff
06
f9
0c
fd
e4
eb
09
04
0a
f8
19
0e
fd
1b
e1
f2
00
1d
09
eb
00
e8
16
f3
10
07
fd
eb
1d
f5
e9
07
f0
f7
fe
f2
0e
f0
0b
18
fc
f4
ec
e9
0c
f7
13
18
eb
25
02
fc
ed
00
fc
13
ee
07
f8
f5
01
fe
fc
0d
10
fc
f9
f3
13
dd
15
0d
de
ed
06
1b
f5
01
f0
06
fe
f0
08
04
ef
f5
fe
01
1e
f0
0e
e6
00
e5
f9
0b
0a
ff
0d
05
fb
f4
f7
08
ea
13
0a
ec
00
e1
08
0b
0d
fc
0a
0a
01
04
0d
0c
fd
07
fc
e8
19
0c
f5
11
07
0d
0a
fb
f6
f8
f6
04
e9
07
04
fb
da
0b
0d
f5
f1
ed
00
01
f6
0d
0b
08
e5
08
02
18
ec
0c
02
0b
06
fe
1f
12
ea
05
15
f0
ef
03
0d
00
ff
18
0b
0a
05
f2
03
0f
f3
0d
f9
f8
f0
0b
06
fb
e7
f1
f1
e6
eb
19
02
ee
df
ee
f2
06
fa
f1
ff
ea
08
15
ea
09
0f
0c
f3
09
fe
f8
11
11
00
11
04
f7
02
13
d9
f6
ee
fe
f0
eb
0b
fe
09
07
19
01
fe
fd
f6
ef
f1
fa
fb
13
fb
ed
0a
ff
f3
fd
16
08
01
06
ff
f3
10
16
21
ed
03
0f
1a
e8
08
07
02
17
e9
1d
17
e9
f6
15
fa
f0
07
0c
0a
0b
fb
ea
fe
f1
f7
f1
04
fa
0d
0a
12
ec
e3
ea
0d
fc
f9
1d
f7
0b
fb
10
f3
05
f6
09
f4
e5
0a
11
f8
ff
eb
09
fd
f2
e9
01
f8
f4
07
f9
ff
fd
17
0c
ef
13
1a
05
1a
0a
fe
0c
f8
f9
21
ec
0c
ff
f9
1a
07
1f
05
06
f5
13
ff
08
f9
08
19
09
09
08
22
07
f3
12
14
07
0b
05
f5
fa
03
07
f0
ec
10
d0
10
f1
fd
f7
e7
e8
f0
05
01
fe
0f
0e
14
0f
fe
14
04
0d
f0
0f
fa
d5
10
06
f3
f5
e3
05
06
0f
ef
e7
04
f6
08
fc
0e
ea
fd
fb
f1
23
e9
e8
01
02
0d
04
ea
20
01
f9
e7
01
f4
08
04
ea
03
0c
ff
0e
03
f3
fd
1e
fe
f9
e9
08
04
f8
02
eb
05
19
f2
1c
ff
05
ee
00
ef
1f
01
f3
22
e3
f5
e8
ff
00
0d
f0
f3
0c
ff
0c
f2
ff
ff
17
07
fb
fc
fb
e2
1a
05
09
f9
e8
13
ef
05
08
1c
03
fd
1d
18
fd
f0
07
06
f4
f6
fe
09
fe
fa
11
f0
0f
0c
09
f4
17
ea
ea
1c
f4
00
ed
e7
0c
fe
05
fe
06
00
09
04
cb
0f
f7
16
13
f5
fe
ff
07
23
f1
f2
ee
0c
fa
00
fa
18
04
e6
0f
09
f9
02
04
f5
f3
ee
13
f6
f4
11
ee
f2
f4
07
0a
0b
17
f5
0a
f8
14
fc
0e
f3
04
fe
ef
0d
06
ff
01
e8
0f
f3
fa
0a
f8
14
09
e5
f3
f9
fb
f8
e4
02
f6
13
ee
04
09
fa
06
0e
0a
fb
0f
f9
f4
04
ec
f2
12
fe
f9
20
11
12
fd
f3
0f
f1
e6
ee
e3
11
05
f6
f8
10
05
17
08
03
00
0a
ef
fc
0c
11
f3
0d
fc
f0
08
ea
1c
10
ec
eb
fc
f9
02
05
08
16
07
e5
0c
e5
00
f2
02
f0
e4
ea
07
23
fe
fa
0b
10
07
fc
11
0e
0b
04
10
f7
fb
01
f6
0b
06
fd
04
e1
01
1d
f9
eb
fc
13
04
0e
fe
0e
fd
04
01
fa
ff
fb
f5
0a
0b
fb
1b
09
f7
15
0d
ff
ea
e3
f0
24
13
09
0c
f4
f7
0b
0d
f6
eb
f5
ec
f8
f9
fe
e9
0d
09
0e
ef
12
f7
00
05
f9
ee
eb
03
04
09
04
18
f1
ef
e8
f1
0c
02
0f
06
f5
16
19
f6
ed
ea
13
00
f5
fe
f7
fd
12
dc
e8
fc
fc
fb
0f
fa
fc
f6
1c
0a
f9
07
f8
2b
ee
17
fc
f4
14
06
03
f7
ea
1f
fd
fa
05
06
f1
01
f4
04
fb
0e
0c
0d
00
f6
0e
06
1c
fd
06
17
1e
01
ed
01
17
fa
fb
13
ef
07
02
1a
fa
08
1a
0a
04
1f
0a
22
1c
0b
17
ee
f4
16
1f
f8
ee
da
de
01
fd
f5
0b
ed
fb
05
f4
ef
0e
07
13
ee
f2
16
ff
f5
fd
f6
02
05
02
f6
13
04
fe
03
0c
0b
07
02
0d
f6
f3
fe
27
14
03
fb
f7
ed
f8
13
f7
01
13
f5
f8
0d
06
f6
f4
f7
f0
fe
fa
f3
09
07
fc
03
f4
07
00
fe
08
f6
f4
0c
01
fa
00
04
04
f7
f9
ee
16
ff
fe
ea
01
0c
f5
fd
18
fd
f7
de
d3
ff
0d
ff
ef
12
04
0d
1a
0b
05
05
06
15
e7
01
fd
00
f8
f3
01
f4
ff
09
d9
11
ee
ef
0b
d8
19
ec
f9
0a
f8
1d
15
11
0f
f0
fb
00
f8
0f
2d
ed
f4
ff
f3
11
1b
01
08
eb
00
ff
f4
03
f7
f1
ea
1a
05
0b
11
0d
f3
fe
09
fb
fc
05
0a
03
d5
f2
fc
ee
04
0a
f1
fa
09
0c
e8
02
11
f2
16
01
1f
10
16
0e
f6
19
e6
0c
0c
f0
e2
ea
e5
12
f6
f1
fe
fa
08
04
f1
ed
06
00
fa
fd
e7
13
09
ff
f8
ef
fe
12
fc
fe
01
f9
03
06
ec
03
0b
fb
17
14
0e
18
d3
e9
1f
01
f7
04
13
f6
f5
1b
0c
fb
17
07
f9
17
ff
f4
06
ef
0d
f2
e4
01
06
ff
02
08
dc
05
f9
05
28
fa
f9
ff
11
ee
0f
0a
1b
f2
11
03
06
0d
fe
06
f5
0d
ee
f8
f7
ef
fc
fe
07
ff
fe
fa
0a
05
ff
18
fa
1a
05
05
f9
f9
f3
e3
f2
0f
0d
f3
f2
07
09
13
f7
fc
f6
e9
13
f8
fc
fc
05
de
10
05
f5
10
0f
1e
0f
0e
f4
fd
fa
11
0f
fb
0f
f2
02
f3
e8
fb
ec
fb
1b
f4
e8
0a
f7
f4
0c
ff
00
fd
05
f5
e4
ee
02
f3
07
fa
1d
0d
e9
0b
01
fd
f9
f8
00
f6
f1
fb
14
00
0d
0d
ec
f1
f2
19
0f
e7
01
14
00
13
f0
e8
0a
f6
11
00
08
eb
07
fe
fa
01
f2
09
e1
fc
01
03
09
fa
fa
12
14
ff
0c
06
e9
f2
05
00
15
f2
12
fa
10
15
11
01
f0
01
0f
ff
f6
ff
f5
07
0a
e7
07
06
ff
16
12
00
06
09
09
f7
11
1c
0b
07
08
fe
19
0c
00
f7
0a
05
fd
02
ed
09
13
0d
ea
ff
01
f4
ec
e9
f4
1a
07
07
16
dc
e4
f1
ed
0b
13
0b
e6
f4
02
06
ff
fa
f1
00
10
0d
e4
03
eb
0b
03
09
fb
09
f6
0f
f7
02
de
f2
e6
fa
fe
fe
fa
ef
f7
f5
09
1a
12
e8
0a
08
07
10
f3
fc
fc
0f
e0
fc
0a
0d
0b
13
19
fb
19
08
fc
0c
ff
00
fc
09
18
08
dd
f9
09
f9
11
05
db
f4
05
06
e8
f4
13
f2
08
10
03
03
e5
f4
12
0c
fe
f6
16
fe
13
19
f6
15
01
f4
f8
df
df
f5
00
0e
10
06
e8
fd
f6
13
f4
ea
06
ec
01
e9
ea
11
0c
18
09
e9
18
03
df
11
03
fc
0f
01
f9
05
25
07
00
1d
f8
0f
00
df
00
03
03
fe
fd
dd
f4
0f
1a
e6
18
06
14
12
12
ef
0b
fe
fe
f1
0c
08
17
07
e8
03
e0
25
01
07
02
0c
f7
21
fb
f3
1c
18
00
f9
04
dc
f8
04
fe
22
0c
f0
f5
f9
06
f2
fd
17
07
05
f4
fc
08
e5
f7
eb
08
04
f8
01
f0
17
06
18
fa
f1
11
07
ee
ef
f2
eb
f6
1f
e5
fa
f8
21
f8
00
ef
f6
0c
05
0c
e7
07
2f
f8
1b
df
f5
ff
12
e4
ec
03
14
01
f4
e5
fc
08
15
03
f3
fb
e7
09
0e
12
03
f7
ec
e9
fb
d9
eb
cf
e8
06
0a
fe
ff
0b
13
fc
19
10
e9
0a
12
eb
fb
1d
f2
ee
f4
e3
ff
fb
19
05
e5
f9
16
fd
10
19
ee
f8
05
0b
ec
ea
f7
fd
24
e3
fd
e9
03
