fa
f1
04
13
12
00
fa
0f
d2
ff
10
10
0b
ee
01
1a
f4
fc
13
e2
20
0c
e1
e7
08
f6
06
14
f0
fe
da
f0
0c
fc
0c
0f
1b
10
11
f1
04
1f
fc
dd
0b
02
32
09
0e
07
0c
0d
01
06
1a
e2
ff
11
ec
16
0d
07
f7
0e
14
05
ea
05
ed
f6
d4
19
10
10
f9
f5
de
ff
18
19
fa
07
22
02
34
1b
0f
11
1e
f4
00
1e
ef
fe
f7
04
0d
f4
14
eb
d0
1b
fd
fc
06
e8
0a
db
d8
1b
03
e1
00
01
e3
0e
04
21
27
08
02
06
fc
fa
fc
0f
12
e1
1f
f9
f1
f4
05
1d
0e
e7
1c
e6
e6
00
e9
15
ff
00
e3
dd
f3
df
f3
db
2b
2a
e1
13
25
13
e3
44
02
e1
0f
0b
f9
f8
f3
e9
f6
08
cf
fa
04
1c
fe
d5
c7
f1
f9
05
19
d7
17
21
f6
3c
d1
de
0f
2e
e5
ed
ec
eb
e0
e3
f1
07
00
06
fd
f6
dd
0f
10
0e
ea
fb
0b
08
f3
02
f6
ea
0e
f0
09
f3
12
0c
01
0b
ff
25
f3
ea
1d
06
fe
ea
16
03
f2
ef
f6
03
08
fc
f6
f2
0a
22
14
15
fb
e8
f8
03
11
f8
08
ef
0f
1b
08
15
f2
0f
ef
0d
08
0f
0a
f0
05
07
e7
01
ff
fe
13
e3
fd
f8
24
13
08
22
fa
16
ed
e1
10
e8
e4
03
13
cf
07
1b
ef
0d
11
10
ea
14
10
ef
38
0d
1b
e6
0b
20
27
0d
ff
e7
d8
0b
ec
f7
f3
cd
33
1d
f8
cf
1f
17
13
1c
f3
0a
eb
e8
da
01
f2
fb
2c
ee
08
d4
f1
15
21
e4
ea
13
ef
11
07
fb
10
18
05
fe
12
dc
ee
0e
0d
02
05
01
ea
20
02
fa
08
0a
fd
d5
fc
07
f8
ec
d1
00
ff
0e
24
ef
ed
eb
e2
1c
1e
e2
fc
0d
fc
e7
02
fd
23
00
f8
f2
03
1d
0c
01
2f
ed
e0
08
f2
0f
05
f7
eb
e7
e1
ea
cf
f3
1f
24
ea
0c
1e
10
f6
1a
17
e5
0b
11
0d
00
15
ed
db
09
e5
01
00
f5
17
f9
e0
ec
04
09
18
f2
21
0c
f9
1f
d8
ed
ff
2c
05
e6
00
d9
1f
f6
0c
0b
ff
f2
24
ea
e4
09
e4
01
f6
f1
11
ea
08
1e
fa
e9
e8
eb
06
f2
12
1d
e3
35
03
f2
f0
03
ff
1a
f7
ff
f9
fc
fe
ff
f7
18
0b
fa
f4
f3
16
d7
17
16
e9
eb
fd
1f
f8
04
e7
07
05
f7
0d
02
eb
f8
01
02
20
f1
14
ed
04
de
f3
08
0b
06
01
06
f8
ee
f5
02
e8
14
04
e8
f9
e1
04
06
12
f8
0c
0d
05
06
08
0d
fd
0e
fe
e0
1d
11
f1
13
06
12
11
fa
f7
f2
ee
fa
f5
07
08
f8
d7
0e
0d
f8
f5
ee
01
ff
f0
15
0f
0c
ed
0b
fb
1a
f4
0f
03
03
0b
f9
25
12
e9
00
17
f0
e9
00
14
04
06
1d
0c
0f
02
e4
06
0e
f2
15
fa
f9
e4
12
00
f7
eb
f4
f2
e4
e5
1a
06
f3
d7
f2
f0
09
eb
f1
00
e5
00
18
ec
0e
0c
08
f8
03
fa
f4
0e
11
fe
13
0d
f5
fe
16
d7
fe
e9
02
f4
e7
0a
00
0e
0a
1d
ff
02
09
ec
e8
f0
f8
fa
20
fa
de
08
00
f5
ff
21
01
fe
10
02
e7
16
1e
20
e7
ff
13
1f
e1
0b
0c
09
19
e9
1e
21
e1
f6
13
f9
f2
0a
0e
11
0c
eb
e6
f9
ea
ee
e9
05
fd
19
11
19
e8
dd
e8
0e
fa
f7
21
fe
19
f6
10
f9
07
f8
0d
f9
e2
09
14
fa
f9
e9
0c
fa
00
da
f6
f2
ec
13
f0
fd
fc
10
06
e8
12
18
05
1e
07
03
0f
f6
f3
2f
e8
15
fe
f7
24
0b
22
06
08
fb
17
08
05
00
15
1f
0c
14
0a
2d
02
f1
15
1d
04
0c
0c
f9
f6
05
0d
f2
ea
17
c3
12
f6
fb
f9
e1
e6
ec
15
01
f9
16
10
17
0c
ff
17
0d
0c
f0
13
f9
c9
03
0e
fe
f0
e1
07
0a
12
ea
dd
04
f4
0b
f7
0e
e7
f9
ec
ea
26
e2
e4
08
fa
14
fe
e3
26
0a
ec
e3
f6
f9
0b
06
e2
09
18
fc
14
06
f5
fb
29
fd
f3
e9
09
0b
05
fc
de
08
1e
f0
16
f5
09
ed
fa
eb
24
f6
f1
25
df
f2
e5
01
03
09
e7
ee
11
f3
0f
f2
fc
fd
20
14
00
f6
fa
e1
22
01
0f
03
e3
17
f0
05
0d
1e
0f
fb
1e
22
05
ed
0b
0d
ee
f4
f0
10
fa
fe
1a
ef
11
02
10
f0
20
ed
e6
1b
ee
06
ef
e1
13
09
07
02
05
f2
06
fe
c6
08
ed
16
1c
e9
f6
08
ff
26
e7
f4
ef
0f
03
02
f7
24
01
d8
0f
0b
04
0b
04
f6
e9
f1
1b
f1
ea
10
e7
f6
ed
0b
10
09
13
f7
0c
fa
1b
fa
16
f9
0b
08
eb
0a
0d
ff
08
e7
0e
e9
f7
0e
f6
18
09
dc
f4
f5
f6
f2
ea
01
fa
12
e7
08
0e
f3
08
19
07
f7
11
0b
fa
0c
e8
f0
0b
00
01
29
14
11
f8
f6
0a
eb
db
ef
db
17
06
ea
fc
0f
05
14
0c
00
ff
06
ea
fd
02
1f
f0
0b
0b
ec
0b
e4
22
18
e9
e9
fb
fd
01
03
0e
1e
0a
e0
1b
df
00
f6
01
ee
e2
e2
0e
26
fd
f7
08
1b
06
f8
15
12
0f
09
10
ee
fb
fe
f3
09
fd
ff
04
e2
fe
1b
fa
e3
f7
1b
05
0c
ff
0c
f8
05
00
fe
09
f6
f5
0a
0b
fa
1b
06
fa
1a
06
01
e5
dd
f0
2e
11
0c
08
f4
f1
03
0a
f1
f0
f3
e6
fb
ed
fc
e5
09
0a
0a
ef
19
f3
fc
02
ef
f0
ef
01
fd
11
ff
1c
f0
ef
e3
ee
08
f9
0b
0e
f0
1e
18
f0
eb
e4
15
fb
f0
ea
f7
fe
0b
d8
eb
04
ff
f6
12
f7
f6
f5
22
15
01
04
f2
32
ed
1a
03
f1
24
0a
04
fc
e9
31
ff
fd
09
0b
f8
00
ec
08
f1
0f
10
0e
07
f0
09
0d
1d
f8
04
15
21
05
e9
ff
1d
ec
ff
13
ef
0b
fc
1b
fa
02
20
fc
0f
24
13
1e
1c
0b
1d
eb
f6
1c
26
f9
ec
cc
cb
00
01
f2
11
e4
fa
07
e4
e4
0c
07
16
e1
f1
1a
08
f2
f9
f7
fe
03
fe
f6
18
05
f1
07
11
0b
03
01
0e
f3
ef
00
29
17
08
f9
f5
ea
f8
10
fc
fb
0f
f6
ee
11
fb
f2
f5
fc
ea
fc
f7
f8
0b
01
f7
03
eb
07
08
fa
02
f8
f4
02
f8
fd
06
09
06
f1
fc
ea
0d
ff
f9
e5
ea
07
f2
fc
29
03
f3
d6
c4
00
16
fc
e8
1d
09
19
18
10
0a
0d
0a
18
e4
fa
00
fc
02
f6
01
fb
f5
1a
c6
12
e3
ea
13
ca
1c
eb
e9
0b
f3
1e
14
15
17
e9
f5
01
ee
09
36
f0
f0
ff
f7
0e
1c
f7
0a
ed
00
ff
f8
08
f8
f2
e4
17
09
0d
1e
0c
f5
fb
10
f8
f9
04
0d
04
d1
f4
fd
ed
03
08
f2
f9
05
14
e3
ff
19
f3
23
fd
26
12
16
10
f3
19
e3
11
0e
f1
df
de
d7
18
fa
ef
04
fe
0c
04
eb
e1
02
06
f7
00
e2
14
0c
03
00
ee
ff
17
f6
fd
fa
f7
10
02
e4
0c
13
03
15
1d
11
20
cd
e4
24
ff
ee
04
14
ed
f0
24
09
f7
18
fe
f9
1b
fd
eb
0b
ee
15
ed
dc
0b
09
ff
07
03
ca
0c
f5
0b
30
fa
ff
01
13
e0
11
0e
19
f6
10
02
04
11
f3
03
f2
10
eb
fd
f2
ec
f6
fd
07
05
01
fc
0c
07
04
22
f6
17
04
02
fa
fd
f3
d7
f1
11
15
f3
ee
07
fb
22
fb
f0
f7
ef
19
f2
f9
02
02
d9
13
0e
ff
14
11
20
14
0b
f0
ff
f9
1a
15
f7
13
f2
05
f3
e9
00
f5
fa
24
eb
e4
06
f6
f7
1c
ff
ff
f7
06
f7
df
e2
ff
e6
0b
f4
1f
16
e3
0d
02
00
f5
f8
fb
f2
f1
f4
24
f9
0a
14
ec
f8
ea
19
13
e3
ff
19
09
14
ea
e9
07
fa
0c
0a
0f
eb
0e
f9
fb
07
ec
15
da
f9
01
03
11
f4
f0
1c
0d
04
15
04
e6
f1
02
10
16
ed
1a
fe
13
16
16
ff
f2
f3
18
01
f0
03
f1
fd
11
de
07
04
fb
1a
1c
fb
0b
04
13
f7
17
20
0f
09
09
fa
16
0e
06
f9
12
fa
04
ff
e8
0a
0d
0e
f5
fc
fc
f2
e8
e4
e2
1c
06
fb
23
d8
d5
eb
e7
0f
1a
06
e0
ff
02
0b
f7
f3
f1
02
13
15
d0
03
ea
00
0a
08
f6
0c
f5
0e
ee
fd
d0
f6
e5
f4
fb
ff
ed
e8
f3
fd
0c
27
1a
e3
fb
0a
02
19
f5
f9
ff
12
e0
ff
06
17
13
15
1e
fa
22
0e
fa
0e
fc
fe
fc
10
15
08
d9
f7
0b
ec
0e
07
db
f5
fd
07
e1
eb
12
f0
09
0d
05
05
de
f2
17
11
fe
f4
19
03
0c
1d
f5
1a
08
f0
fb
d8
d1
ea
06
11
10
01
ed
fa
ea
15
f0
ea
07
e6
01
e5
e8
13
12
25
1c
e9
1a
0d
cc
15
08
02
1a
00
e9
14
2d
0a
fe
21
fc
19
fa
d1
fc
f8
04
fa
fc
d9
ef
15
1f
dc
17
f6
1d
1d
16
ee
12
01
07
f4
14
13
20
02
f2
01
d4
2d
00
0a
04
02
fe
28
fa
eb
23
19
01
fd
06
d3
ec
fe
f3
24
0c
e9
ff
f4
fc
f0
fa
1b
10
ff
f3
f6
09
de
f0
df
13
04
f3
09
ee
1c
fe
1b
fa
ec
18
0a
ee
ec
f2
e3
f0
25
df
f7
f2
22
f3
f7
e2
fc
10
0d
13
e9
0d
2e
fa
25
de
ee
01
1c
de
f2
fe
19
05
f3
e6
f7
12
1d
07
e9
01
db
04
0f
16
08
f7
dc
e1
f7
d2
e0
c7
d8
07
08
f7
0a
06
13
fb
1e
14
e2
0a
16
e9
f9
2d
e6
e7
ff
da
05
f6
1d
11
d6
fa
1c
02
1d
28
e8
ef
ff
06
f8
e6
f5
03
30
e2
fd
e1
0d
